{
  "version": "1.0",
  "truncation": null,
  "padding": null,
  "added_tokens": [
    {
      "id": 0,
      "content": "[UNK]",
      "single_word": false,
      "lstrip": false,
      "rstrip": false,
      "normalized": false,
      "special": true
    }
  ],
  "normalizer": {
    "type": "Sequence",
    "normalizers": [
      {
        "type": "NFD"
      },
      {
        "type": "Lowercase"
      },
      {
        "type": "StripAccents"
      }
    ]
  },
  "pre_tokenizer": {
    "type": "Whitespace"
  },
  "post_processor": null,
  "decoder": null,
  "model": {
    "type": "WordPiece",
    "unk_token": "[UNK]",
    "continuing_subword_prefix": "##",
    "max_input_chars_per_word": 100,
    "vocab": {
      "[UNK]": 0,
      "1": 1,
      "2": 2,
      "a": 3,
      "b": 4,
      "c": 5,
      "d": 6,
      "e": 7,
      "f": 8,
      "g": 9,
      "h": 10,
      "i": 11,
      "j": 12,
      "k": 13,
      "l": 14,
      "m": 15,
      "n": 16,
      "o": 17,
      "p": 18,
      "q": 19,
      "r": 20,
      "s": 21,
      "t": 22,
      "u": 23,
      "v": 24,
      "w": 25,
      "x": 26,
      "y": 27,
      "z": 28,
      "##c": 29,
      "##b": 30,
      "##r": 31,
      "##i": 32,
      "##o": 33,
      "##t": 34,
      "##e": 35,
      "##n": 36,
      "##l": 37,
      "##g": 38,
      "##a": 39,
      "##s": 40,
      "##u": 41,
      "##y": 42,
      "##p": 43,
      "##d": 44,
      "##k": 45,
      "##m": 46,
      "##h": 47,
      "##q": 48,
      "##z": 49,
      "##f": 50,
      "##x": 51,
      "##v": 52,
      "##j": 53,
      "##w": 54,
      "##2": 55,
      "##1": 56,
      "##en": 57,
      "##ti": 58,
      "de": 59,
      "##os": 60,
      "##es": 61,
      "##na": 62,
      "##er": 63,
      "##rg": 64,
      "of": 65,
      "##res": 66,
      "##enti": 67,
      "bu": 68,
      "ai": 69,
      "##enos": 70,
      "buenos": 71,
      "aires": 72,
      "arg": 73,
      "argenti": 74,
      "##io": 75,
      "argentina": 76,
      "##ic": 77,
      "##al": 78,
      "dep": 79,
      "##ar": 80,
      "##in": 81,
      "##an": 82,
      "##it": 83,
      "##iv": 84,
      "un": 85,
      "##lo": 86,
      "##or": 87,
      "in": 88,
      "##ers": 89,
      "##ivers": 90,
      "univers": 91,
      "##log": 92,
      "##ac": 93,
      "##ent": 94,
      "##ad": 95,
      "##tu": 96,
      "##to": 97,
      "##ia": 98,
      "##acio": 99,
      "fd": 100,
      "##nd": 101,
      "##nal": 102,
      "##ro": 103,
      "##ed": 104,
      "dept": 105,
      "##ec": 106,
      "##ta": 107,
      "##is": 108,
      "##id": 109,
      "##sti": 110,
      "##ati": 111,
      "##ine": 112,
      "##on": 113,
      "##stitu": 114,
      "institu": 115,
      "##idad": 116,
      "##osp": 117,
      "en": 118,
      "##olog": 119,
      "sc": 120,
      "##enc": 121,
      "##as": 122,
      "universidad": 123,
      "instituto": 124,
      "san": 125,
      "##tr": 126,
      "universit": 127,
      "##do": 128,
      "and": 129,
      "hosp": 130,
      "##ital": 131,
      "hospital": 132,
      "##ing": 133,
      "##ment": 134,
      "##acion": 135,
      "la": 136,
      "##edic": 137,
      "##art": 138,
      "eng": 139,
      "##ienc": 140,
      "##ba": 141,
      "del": 142,
      "cor": 143,
      "depart": 144,
      "department": 145,
      "##ering": 146,
      "##ineering": 147,
      "engineering": 148,
      "nacio": 149,
      "nacional": 150,
      "##onal": 151,
      "##doba": 152,
      "cordoba": 153,
      "medic": 154,
      "university": 155,
      "##ter": 156,
      "##la": 157,
      "cent": 158,
      "##ational": 159,
      "scienc": 160,
      "##il": 161,
      "##he": 162,
      "##uc": 163,
      "##el": 164,
      "##ario": 165,
      "##ical": 166,
      "tec": 167,
      "##iolog": 168,
      "##ol": 169,
      "##om": 170,
      "##nolog": 171,
      "##ico": 172,
      "national": 173,
      "##le": 174,
      "pla": 175,
      "##te": 176,
      "##ica": 177,
      "##gu": 178,
      "##us": 179,
      "##ion": 180,
      "plata": 181,
      "##ation": 182,
      "ros": 183,
      "sch": 184,
      "##und": 185,
      "centro": 186,
      "medicine": 187,
      "santa": 188,
      "##th": 189,
      "mar": 190,
      "##oc": 191,
      "rosario": 192,
      "con": 193,
      "##ology": 194,
      "##ial": 195,
      "fe": 196,
      "##tor": 197,
      "##ch": 198,
      "ne": 199,
      "##ul": 200,
      "##gacion": 201,
      "##ves": 202,
      "##tigacion": 203,
      "inves": 204,
      "investigacion": 205,
      "science": 206,
      "##um": 207,
      "tecnolog": 208,
      "fund": 209,
      "ci": 210,
      "##ina": 211,
      "##za": 212,
      "##am": 213,
      "su": 214,
      "fundacion": 215,
      "ma": 216,
      "##im": 217,
      "##un": 218,
      "el": 219,
      "sal": 220,
      "es": 221,
      "##try": 222,
      "##ery": 223,
      "##rgery": 224,
      "##di": 225,
      "##hem": 226,
      "##ys": 227,
      "##icas": 228,
      "##et": 229,
      "investigaciones": 230,
      "##uman": 231,
      "com": 232,
      "sciences": 233,
      "##ics": 234,
      "tuc": 235,
      "tucuman": 236,
      "dr": 237,
      "##tudi": 238,
      "biolog": 239,
      "##ision": 240,
      "ph": 241,
      "bio": 242,
      "##pl": 243,
      "##ca": 244,
      "##ear": 245,
      "men": 246,
      "##doza": 247,
      "mendoza": 248,
      "ju": 249,
      "surgery": 250,
      "gen": 251,
      "gener": 252,
      "##inis": 253,
      "ag": 254,
      "##logy": 255,
      "rio": 256,
      "##entif": 257,
      "cientif": 258,
      "ps": 259,
      "##ig": 260,
      "##no": 261,
      "car": 262,
      "soc": 263,
      "##ied": 264,
      "neu": 265,
      "##qu": 266,
      "general": 267,
      "res": 268,
      "##iology": 269,
      "ca": 270,
      "phys": 271,
      "agu": 272,
      "##tory": 273,
      "re": 274,
      "em": 275,
      "##re": 276,
      "conic": 277,
      "##ud": 278,
      "##leg": 279,
      "tecnologico": 280,
      "pu": 281,
      "##ral": 282,
      "##cu": 283,
      "##ech": 284,
      "pro": 285,
      "##ych": 286,
      "psych": 287,
      "##lan": 288,
      "##ios": 289,
      "##ora": 290,
      "##tic": 291,
      "lu": 292,
      "conicet": 293,
      "center": 294,
      "##earch": 295,
      "research": 296,
      "##ib": 297,
      "##av": 298,
      "inter": 299,
      "card": 300,
      "##era": 301,
      "##ular": 302,
      "cl": 303,
      "clin": 304,
      "##ry": 305,
      "##pa": 306,
      "it": 307,
      "##isc": 308,
      "universitario": 309,
      "as": 310,
      "chem": 311,
      "##se": 312,
      "##ustr": 313,
      "##iro": 314,
      "ap": 315,
      "##ez": 316,
      "##asc": 317,
      "##plied": 318,
      "applied": 319,
      "rad": 320,
      "##ool": 321,
      "school": 322,
      "lab": 323,
      "cienc": 324,
      "studi": 325,
      "##rology": 326,
      "ciencia": 327,
      "studies": 328,
      "col": 329,
      "##eric": 330,
      "##pu": 331,
      "##ano": 332,
      "ch": 333,
      "th": 334,
      "##gua": 335,
      "agr": 336,
      "civ": 337,
      "the": 338,
      "##uy": 339,
      "##tol": 340,
      "civil": 341,
      "##duc": 342,
      "##inister": 343,
      "##cs": 344,
      "##dos": 345,
      "agudos": 346,
      "on": 347,
      "tecnologia": 348,
      "onc": 349,
      "salta": 350,
      "##oro": 351,
      "cientifico": 352,
      "an": 353,
      "##hnolog": 354,
      "technolog": 355,
      "##istry": 356,
      "inf": 357,
      "minister": 358,
      "ministerio": 359,
      "##tre": 360,
      "##and": 361,
      "labora": 362,
      "##ra": 363,
      "##ur": 364,
      "par": 365,
      "technology": 366,
      "if": 367,
      "salud": 368,
      "##iatry": 369,
      "psychiatry": 370,
      "##ectr": 371,
      "electr": 372,
      "biom": 373,
      "##cion": 374,
      "##lege": 375,
      "college": 376,
      "juan": 377,
      "aer": 378,
      "ad": 379,
      "lati": 380,
      "##ient": 381,
      "##bs": 382,
      "##mental": 383,
      "##ier": 384,
      "his": 385,
      "al": 386,
      "##ne": 387,
      "para": 388,
      "##iov": 389,
      "##icul": 390,
      "cardiov": 391,
      "agricul": 392,
      "agricultu": 393,
      "##ce": 394,
      "##ab": 395,
      "##tiv": 396,
      "##tam": 397,
      "biological": 398,
      "medico": 399,
      "estudi": 400,
      "estudios": 401,
      "div": 402,
      "##orm": 403,
      "universite": 404,
      "division": 405,
      "##inary": 406,
      "##go": 407,
      "social": 408,
      "at": 409,
      "##bl": 410,
      "##erv": 411,
      "ped": 412,
      "electrical": 413,
      "##gn": 414,
      "##ace": 415,
      "lit": 416,
      "cr": 417,
      "santi": 418,
      "compu": 419,
      "computer": 420,
      "##ph": 421,
      "fo": 422,
      "fer": 423,
      "rios": 424,
      "##jo": 425,
      "entre": 426,
      "##erap": 427,
      "##iz": 428,
      "##tolica": 429,
      "##ue": 430,
      "##erica": 431,
      "##noam": 432,
      "latinoam": 433,
      "##ato": 434,
      "institute": 435,
      "##ospace": 436,
      "medicina": 437,
      "##unic": 438,
      "aerospace": 439,
      "nor": 440,
      "catolica": 441,
      "im": 442,
      "qu": 443,
      "##ork": 444,
      "obs": 445,
      "uc": 446,
      "##yn": 447,
      "publ": 448,
      "argentine": 449,
      "des": 450,
      "oncolog": 451,
      "ex": 452,
      "##nmental": 453,
      "##viro": 454,
      "enviro": 455,
      "environmental": 456,
      "educ": 457,
      "dia": 458,
      "##hab": 459,
      "ind": 460,
      "##ilit": 461,
      "rehab": 462,
      "##ascular": 463,
      "cardiovascular": 464,
      "rehabilit": 465,
      "##anc": 466,
      "##encia": 467,
      "##trics": 468,
      "##ell": 469,
      "##aval": 470,
      "##tion": 471,
      "##rin": 472,
      "pa": 473,
      "##pres": 474,
      "empres": 475,
      "or": 476,
      "##cia": 477,
      "##ero": 478,
      "##tho": 479,
      "ortho": 480,
      "neg": 481,
      "oc": 482,
      "##pational": 483,
      "##erg": 484,
      "neurology": 485,
      "##cupational": 486,
      "occupational": 487,
      "comm": 488,
      "pol": 489,
      "austr": 490,
      "##em": 491,
      "austral": 492,
      "mision": 493,
      "##chem": 494,
      "biochem": 495,
      "misiones": 496,
      "biochemistry": 497,
      "bar": 498,
      "is": 499,
      "mech": 500,
      "laboratory": 501,
      "mechan": 502,
      "##juy": 503,
      "##tec": 504,
      "##adas": 505,
      "##rop": 506,
      "therap": 507,
      "therapy": 508,
      "##uar": 509,
      "tecn": 510,
      "conse": 511,
      "consejo": 512,
      "##ipl": 513,
      "##disc": 514,
      "##discipl": 515,
      "##nand": 516,
      "fernand": 517,
      "faval": 518,
      "mi": 519,
      "##guel": 520,
      "physics": 521,
      "chemical": 522,
      "favaloro": 523,
      "miguel": 524,
      "##tin": 525,
      "##undation": 526,
      "martin": 527,
      "physical": 528,
      "foundation": 529,
      "co": 530,
      "lan": 531,
      "rehabilitation": 532,
      "##erto": 533,
      "te": 534,
      "##per": 535,
      "##ign": 536,
      "##ericana": 537,
      "##jan": 538,
      "cientificas": 539,
      "tecnicas": 540,
      "der": 541,
      "clinical": 542,
      "inform": 543,
      "information": 544,
      "##iano": 545,
      "##aliano": 546,
      "italiano": 547,
      "##ir": 548,
      "##gen": 549,
      "##minis": 550,
      "luis": 551,
      "adminis": 552,
      "administr": 553,
      "ac": 554,
      "ale": 555,
      "pedia": 556,
      "ge": 557,
      "##nologia": 558,
      "##che": 559,
      "negro": 560,
      "ib": 561,
      "##ilo": 562,
      "maria": 563,
      "biomedic": 564,
      "##omas": 565,
      "##tan": 566,
      "##ago": 567,
      "##tica": 568,
      "##tero": 569,
      "estero": 570,
      "santiago": 571,
      "history": 572,
      "##ore": 573,
      "ve": 574,
      "##terial": 575,
      "material": 576,
      "##ton": 577,
      "##ustrial": 578,
      "ciencias": 579,
      "industrial": 580,
      "pos": 581,
      "##itic": 582,
      "emerg": 583,
      "politic": 584,
      "posadas": 585,
      "##tos": 586,
      "##este": 587,
      "##tico": 588,
      "##unication": 589,
      "communication": 590,
      "##logia": 591,
      "##arca": 592,
      "catam": 593,
      "catamarca": 594,
      "##ena": 595,
      "vil": 596,
      "fr": 597,
      "franc": 598,
      "##od": 599,
      "##ah": 600,
      "biologia": 601,
      "##gnos": 602,
      "diagnos": 603,
      "ja": 604,
      "serv": 605,
      "##ms": 606,
      "##ado": 607,
      "servic": 608,
      "##if": 609,
      "##ces": 610,
      "##cell": 611,
      "##entis": 612,
      "##ence": 613,
      "interdiscipl": 614,
      "excell": 615,
      "excellence": 616,
      "cuar": 617,
      "sta": 618,
      "urology": 619,
      "##gon": 620,
      "##tisti": 621,
      "##tagon": 622,
      "medica": 623,
      "jujuy": 624,
      "cuarto": 625,
      "statisti": 626,
      "##tagonia": 627,
      "statistics": 628,
      "fis": 629,
      "sp": 630,
      "ar": 631,
      "##iacion": 632,
      "##onom": 633,
      "##ociacion": 634,
      "puerto": 635,
      "asociacion": 636,
      "am": 637,
      "cuy": 638,
      "##imica": 639,
      "quimica": 640,
      "cuyo": 641,
      "gar": 642,
      "jos": 643,
      "##ela": 644,
      "##arial": 645,
      "##eda": 646,
      "jose": 647,
      "eart": 648,
      "sa": 649,
      "##mosp": 650,
      "##heric": 651,
      "##ency": 652,
      "marine": 653,
      "agriculture": 654,
      "atmosp": 655,
      "coun": 656,
      "emergency": 657,
      "earth": 658,
      "atmospheric": 659,
      "super": 660,
      "superio": 661,
      "servicio": 662,
      "##lp": 663,
      "##ian": 664,
      "interdisciplinary": 665,
      "hear": 666,
      "##eech": 667,
      "##mato": 668,
      "radiology": 669,
      "dermato": 670,
      "speech": 671,
      "hearing": 672,
      "dermatology": 673,
      "ic": 674,
      "nin": 675,
      "##ip": 676,
      "psychology": 677,
      "ninos": 678,
      "au": 679,
      "fun": 680,
      "##andil": 681,
      "##ni": 682,
      "##ros": 683,
      "##urgery": 684,
      "neuros": 685,
      "parana": 686,
      "agricultural": 687,
      "neurosurgery": 688,
      "##vin": 689,
      "##ito": 690,
      "provin": 691,
      "barilo": 692,
      "bariloche": 693,
      "cardiology": 694,
      "flo": 695,
      "gyn": 696,
      "##end": 697,
      "##ecology": 698,
      "##iologic": 699,
      "##tetrics": 700,
      "radiologic": 701,
      "obstetrics": 702,
      "materials": 703,
      "gynecology": 704,
      "ur": 705,
      "##ugua": 706,
      "##pcion": 707,
      "##terinary": 708,
      "conce": 709,
      "veterinary": 710,
      "urugua": 711,
      "concepcion": 712,
      "uruguay": 713,
      "na": 714,
      "##ona": 715,
      "##tw": 716,
      "##tro": 717,
      "##lis": 718,
      "##ald": 719,
      "##inero": 720,
      "englis": 721,
      "netw": 722,
      "english": 723,
      "network": 724,
      "rel": 725,
      "sys": 726,
      "##oph": 727,
      "##osoph": 728,
      "##esth": 729,
      "##esiology": 730,
      "argentino": 731,
      "##ious": 732,
      "##ino": 733,
      "##ilosoph": 734,
      "##tems": 735,
      "philosoph": 736,
      "##igious": 737,
      "##isco": 738,
      "anesth": 739,
      "oncologia": 740,
      "political": 741,
      "francisco": 742,
      "religious": 743,
      "systems": 744,
      "philosophy": 745,
      "anesthesiology": 746,
      "##cio": 747,
      "##orac": 748,
      "thorac": 749,
      "thoracic": 750,
      "bor": 751,
      "zonal": 752,
      "##arg": 753,
      "##pedic": 754,
      "orthopedic": 755,
      "fam": 756,
      "##alit": 757,
      "##tologia": 758,
      "santo": 759,
      "##ily": 760,
      "chemistry": 761,
      "family": 762,
      "##ecular": 763,
      "##olecular": 764,
      "mag": 765,
      "lujan": 766,
      "biomolecular": 767,
      "atlan": 768,
      "latinoamericana": 769,
      "nuc": 770,
      "##ja": 771,
      "##icos": 772,
      "##lear": 773,
      "##throp": 774,
      "rioja": 775,
      "sociology": 776,
      "anthrop": 777,
      "nuclear": 778,
      "anthropology": 779,
      "##var": 780,
      "internal": 781,
      "alvar": 782,
      "alvarez": 783,
      "nationale": 784,
      "##thology": 785,
      "pathology": 786,
      "ia": 787,
      "##them": 788,
      "##eh": 789,
      "##str": 790,
      "uns": 791,
      "##atics": 792,
      "##uction": 793,
      "constr": 794,
      "mathem": 795,
      "##ibre": 796,
      "diagnostico": 797,
      "construction": 798,
      "mathematics": 799,
      "ec": 800,
      "##fa": 801,
      "##thol": 802,
      "laborator": 803,
      "empresarial": 804,
      "econom": 805,
      "oph": 806,
      "pr": 807,
      "work": 808,
      "##bm": 809,
      "##tes": 810,
      "##mology": 811,
      "##almology": 812,
      "##ivado": 813,
      "##oral": 814,
      "##thalmology": 815,
      "clinicas": 816,
      "litoral": 817,
      "ophthalmology": 818,
      "privado": 819,
      "cic": 820,
      "me": 821,
      "##ge": 822,
      "##iation": 823,
      "biology": 824,
      "radiation": 825,
      "oncology": 826,
      "fernandez": 827,
      "end": 828,
      "una": 829,
      "##ocrin": 830,
      "oncologico": 831,
      "superior": 832,
      "endocrin": 833,
      "endocrinology": 834,
      "nec": 835,
      "otol": 836,
      "##ep": 837,
      "##gology": 838,
      "##atory": 839,
      "##aryn": 840,
      "##head": 841,
      "##iento": 842,
      "##ervatory": 843,
      "observatory": 844,
      "neck": 845,
      "otolaryn": 846,
      "##gologyhead": 847,
      "otolaryngologyhead": 848,
      "##da": 849,
      "mechanics": 850,
      "mer": 851,
      "um": 852,
      "merc": 853,
      "##our": 854,
      "##sis": 855,
      "##ician": 856,
      "##turo": 857,
      "##tural": 858,
      "##roc": 859,
      "resour": 860,
      "physician": 861,
      "assis": 862,
      "##tant": 863,
      "arturo": 864,
      "natural": 865,
      "resources": 866,
      "assistant": 867,
      "lomas": 868,
      "via": 869,
      "zam": 870,
      "imb": 871,
      "zamora": 872,
      "hec": 873,
      "mal": 874,
      "ro": 875,
      "ten": 876,
      "bus": 877,
      "mechanical": 878,
      "##argue": 879,
      "malargue": 880,
      "fore": 881,
      "##ges": 882,
      "##tures": 883,
      "##omus": 884,
      "socied": 885,
      "##eratures": 886,
      "##ascomus": 887,
      "chascomus": 888,
      "##guages": 889,
      "literatures": 890,
      "languages": 891,
      "geolog": 892,
      "foreign": 893,
      "sociedad": 894,
      "blan": 895,
      "bah": 896,
      "##rient": 897,
      "##ik": 898,
      "##adem": 899,
      "corrient": 900,
      "patagonia": 901,
      "academ": 902,
      "pediatrics": 903,
      "blanca": 904,
      "bahia": 905,
      "corrientes": 906,
      "bo": 907,
      "equ": 908,
      "##llo": 909,
      "##arro": 910,
      "##edics": 911,
      "##paedics": 912,
      "publico": 913,
      "desarro": 914,
      "orthopaedics": 915,
      "desarrollo": 916,
      "av": 917,
      "gal": 918,
      "##ua": 919,
      "inno": 920,
      "##ellan": 921,
      "##toria": 922,
      "psico": 923,
      "cathol": 924,
      "##legos": 925,
      "education": 926,
      "avellan": 927,
      "gallegos": 928,
      "innov": 929,
      "avellaneda": 930,
      "he": 931,
      "ment": 932,
      "##sel": 933,
      "##alth": 934,
      "##iologia": 935,
      "##oma": 936,
      "ciud": 937,
      "escu": 938,
      "neuro": 939,
      "counsel": 940,
      "health": 941,
      "mental": 942,
      "ciudad": 943,
      "escuela": 944,
      "counseling": 945,
      "plan": 946,
      "##tis": 947,
      "ifis": 948,
      "educacion": 949,
      "##emm": 950,
      "lanus": 951,
      "provincia": 952,
      "id": 953,
      "pal": 954,
      "##lement": 955,
      "##tividad": 956,
      "administracion": 957,
      "igua": 958,
      "mus": 959,
      "tr": 960,
      "##ew": 961,
      "##zu": 962,
      "##vad": 963,
      "##iotec": 964,
      "##elew": 965,
      "salvad": 966,
      "public": 967,
      "design": 968,
      "administration": 969,
      "iguazu": 970,
      "muse": 971,
      "trelew": 972,
      "##iotecnologia": 973,
      "salvador": 974,
      "cos": 975,
      "val": 976,
      "##br": 977,
      "##renc": 978,
      "fernando": 979,
      "villa": 980,
      "florenc": 981,
      "valle": 982,
      "florencio": 983,
      "di": 984,
      "##ventis": 985,
      "infan": 986,
      "biomedical": 987,
      "##les": 988,
      "##xti": 989,
      "marina": 990,
      "texti": 991,
      "textiles": 992,
      "ato": 993,
      "##quim": 994,
      "atom": 995,
      "fue": 996,
      "red": 997,
      "tier": 998,
      "fuego": 999,
      "tierra": 1000,
      "iu": 1001,
      "tandil": 1002,
      "##aco": 1003,
      "chaco": 1004,
      "pediatr": 1005,
      "mac": 1006,
      "##nom": 1007,
      "astro": 1008,
      "##tonoma": 1009,
      "autonoma": 1010,
      "astronom": 1011,
      "dom": 1012,
      "##uz": 1013,
      "##ingo": 1014,
      "cruz": 1015,
      "funes": 1016,
      "domingo": 1017,
      "gas": 1018,
      "##icar": 1019,
      "ev": 1020,
      "##blo": 1021,
      "##ipu": 1022,
      "##eblo": 1023,
      "##ita": 1024,
      "##stin": 1025,
      "maza": 1026,
      "maipu": 1027,
      "agustin": 1028,
      "pueblo": 1029,
      "##celo": 1030,
      "barcelo": 1031,
      "hector": 1032,
      "evita": 1033,
      "dur": 1034,
      "luc": 1035,
      "mor": 1036,
      "mel": 1037,
      "argeric": 1038,
      "##ecito": 1039,
      "##ilecito": 1040,
      "chilecito": 1041,
      "##endez": 1042,
      "durand": 1043,
      "lucio": 1044,
      "moron": 1045,
      "melendez": 1046,
      "argerich": 1047,
      "fle": 1048,
      "form": 1049,
      "##ming": 1050,
      "##xand": 1051,
      "##osa": 1052,
      "central": 1053,
      "alexand": 1054,
      "catholic": 1055,
      "fleming": 1056,
      "formosa": 1057,
      "alexander": 1058,
      "aqu": 1059,
      "hp": 1060,
      "per": 1061,
      "ram": 1062,
      "##tal": 1063,
      "##jia": 1064,
      "##ties": 1065,
      "##arino": 1066,
      "##edy": 1067,
      "##uce": 1068,
      "rosarino": 1069,
      "##inatal": 1070,
      "cruce": 1071,
      "mejia": 1072,
      "innovacion": 1073,
      "perinatal": 1074,
      "ramos": 1075,
      "perinatales": 1076,
      "bal": 1077,
      "bell": 1078,
      "hen": 1079,
      "mo": 1080,
      "vision": 1081,
      "law": 1082,
      "##uscio": 1083,
      "##ampa": 1084,
      "comision": 1085,
      "neuqu": 1086,
      "##seiro": 1087,
      "##ductiv": 1088,
      "norte": 1089,
      "balseiro": 1090,
      "belluscio": 1091,
      "henry": 1092,
      "moore": 1093,
      "neuquen": 1094,
      "mun": 1095,
      "miro": 1096,
      "otam": 1097,
      "##li": 1098,
      "##endi": 1099,
      "##nator": 1100,
      "##icia": 1101,
      "##alud": 1102,
      "##idro": 1103,
      "eliz": 1104,
      "##ericano": 1105,
      "pedro": 1106,
      "latinoamericano": 1107,
      "isalud": 1108,
      "sanator": 1109,
      "##alde": 1110,
      "atlantis": 1111,
      "muniz": 1112,
      "miroli": 1113,
      "otamendi": 1114,
      "elizalde": 1115,
      "sanatorio": 1116,
      "dis": 1117,
      "dam": 1118,
      "dona": 1119,
      "munic": 1120,
      "noro": 1121,
      "to": 1122,
      "trin": 1123,
      "##be": 1124,
      "##bar": 1125,
      "##eas": 1126,
      "##sim": 1127,
      "##man": 1128,
      "##han": 1129,
      "##rahan": 1130,
      "santisim": 1131,
      "diabe": 1132,
      "##janni": 1133,
      "aleman": 1134,
      "garcia": 1135,
      "garrahan": 1136,
      "borda": 1137,
      "santojanni": 1138,
      "economics": 1139,
      "diseas": 1140,
      "damic": 1141,
      "donacion": 1142,
      "municip": 1143,
      "noroeste": 1144,
      "tobar": 1145,
      "trinidad": 1146,
      "santisima": 1147,
      "diabetologia": 1148,
      "pinero": 1149,
      "##sal": 1150,
      "##dal": 1151,
      "sanit": 1152,
      "agua": 1153,
      "##legas": 1154,
      "martinez": 1155,
      "villegas": 1156,
      "magdal": 1157,
      "magdalena": 1158,
      "21": 1159,
      "halit": 1160,
      "sig": 1161,
      "##of": 1162,
      "sanof": 1163,
      "regen": 1164,
      "museum": 1165,
      "halitus": 1166,
      "siglo": 1167,
      "ingen": 1168,
      "##ieria": 1169,
      "teod": 1170,
      "ingenieria": 1171,
      "teodoro": 1172,
      "oeste": 1173,
      "##las": 1174,
      "##ess": 1175,
      "##iness": 1176,
      "##tud": 1177,
      "##ides": 1178,
      "##onides": 1179,
      "maim": 1180,
      "conice": 1181,
      "empresa": 1182,
      "business": 1183,
      "maimonides": 1184,
      "ele": 1185,
      "hel": 1186,
      "##ist": 1187,
      "fisica": 1188,
      "elea": 1189,
      "helios": 1190,
      "mbm": 1191,
      "sur": 1192,
      "mbmed": 1193,
      "los": 1194,
      "##rio": 1195,
      "##otec": 1196,
      "##nica": 1197,
      "##ps": 1198,
      "##vica": 1199,
      "unl": 1200,
      "##dovica": 1201,
      "##inario": 1202,
      "esp": 1203,
      "ludovica": 1204,
      "chemotec": 1205,
      "north": 1206,
      "##ductiva": 1207,
      "chemotecnica": 1208,
      "dentis": 1209,
      "sar": 1210,
      "##ring": 1211,
      "##gel": 1212,
      "##miento": 1213,
      "ingel": 1214,
      "##adol": 1215,
      "##heim": 1216,
      "##erican": 1217,
      "##ehring": 1218,
      "mercadol": 1219,
      "boehring": 1220,
      "dentistry": 1221,
      "sarmiento": 1222,
      "ingelheim": 1223,
      "mercadolibre": 1224,
      "boehringer": 1225,
      "tel": 1226,
      "##que": 1227,
      "sociales": 1228,
      "tella": 1229,
      "bc": 1230,
      "##ies": 1231,
      "##utica": 1232,
      "unr": 1233,
      "##tern": 1234,
      "laboratories": 1235,
      "roemm": 1236,
      "roemmers": 1237,
      "uad": 1238,
      "##co": 1239,
      "##lys": 1240,
      "andres": 1241,
      "iflys": 1242,
      "adventis": 1243,
      "indear": 1244,
      "iflysib": 1245,
      "fp": 1246,
      "##ujuy": 1247,
      "##fas": 1248,
      "##vs": 1249,
      "##jujuy": 1250,
      "##aris": 1251,
      "comah": 1252,
      "saltajujuy": 1253,
      "iaa": 1254,
      "tenaris": 1255,
      "astronomical": 1256,
      "fpvs": 1257,
      "comahue": 1258,
      "doc": 1259,
      "lib": 1260,
      "mad": 1261,
      "org": 1262,
      "##cen": 1263,
      "##bu": 1264,
      "##ubu": 1265,
      "##mar": 1266,
      "##tional": 1267,
      "##national": 1268,
      "##erties": 1269,
      "##aniz": 1270,
      "inid": 1271,
      "##icola": 1272,
      "##ations": 1273,
      "conicetcen": 1274,
      "conicetmar": 1275,
      "international": 1276,
      "##ryn": 1277,
      "##pat": 1278,
      "chubu": 1279,
      "agricola": 1280,
      "docencia": 1281,
      "liberties": 1282,
      "madryn": 1283,
      "organiz": 1284,
      "inidep": 1285,
      "conicetcenpat": 1286,
      "chubut": 1287,
      "organizations": 1288,
      "cc": 1289,
      "fec": 1290,
      "minero": 1291,
      "##tech": 1292,
      "##pro": 1293,
      "##ma": 1294,
      "##osario": 1295,
      "##itas": 1296,
      "inis": 1297,
      "##trosario": 1298,
      "##unditas": 1299,
      "biotech": 1300,
      "repro": 1301,
      "geologico": 1302,
      "conicetrosario": 1303,
      "cct": 1304,
      "fecunditas": 1305,
      "reproductiva": 1306,
      "canc": 1307,
      "cep": 1308,
      "le": 1309,
      "lil": 1310,
      "ona": 1311,
      "rav": 1312,
      "##ev": 1313,
      "##gral": 1314,
      "##sit": 1315,
      "##uto": 1316,
      "##nani": 1317,
      "unla": 1318,
      "##loir": 1319,
      "inte": 1320,
      "insit": 1321,
      "##logica": 1322,
      "##ecuar": 1323,
      "##sticia": 1324,
      "institutos": 1325,
      "##ilio": 1326,
      "##umato": 1327,
      "justicia": 1328,
      "genero": 1329,
      "agrop": 1330,
      "##ignani": 1331,
      "reumato": 1332,
      "emilio": 1333,
      "asist": 1334,
      "iflp": 1335,
      "ifev": 1336,
      "aerona": 1337,
      "historia": 1338,
      "##cei": 1339,
      "##tivia": 1340,
      "americana": 1341,
      "##ipo": 1342,
      "funcei": 1343,
      "laboratorios": 1344,
      "##rocor": 1345,
      "imbiv": 1346,
      "equipo": 1347,
      "ides": 1348,
      "cancer": 1349,
      "ceprocor": 1350,
      "leloir": 1351,
      "lillo": 1352,
      "onativia": 1353,
      "ravignani": 1354,
      "integral": 1355,
      "insituto": 1356,
      "##ecuaria": 1357,
      "agropecuaria": 1358,
      "reumatologica": 1359,
      "asistencia": 1360,
      "ifeva": 1361,
      "bera": 1362,
      "beh": 1363,
      "cu": 1364,
      "jav": 1365,
      "ken": 1366,
      "libre": 1367,
      "mic": 1368,
      "med": 1369,
      "por": 1370,
      "pier": 1371,
      "sl": 1372,
      "sen": 1373,
      "tor": 1374,
      "wcs": 1375,
      "zald": 1376,
      "##bient": 1377,
      "##red": 1378,
      "##itiv": 1379,
      "##nedy": 1380,
      "##lit": 1381,
      "##ger": 1382,
      "##gas": 1383,
      "##ural": 1384,
      "##yun": 1385,
      "##moc": 1386,
      "##hes": 1387,
      "##jero": 1388,
      "##ioural": 1389,
      "##inte": 1390,
      "##ivar": 1391,
      "institucion": 1392,
      "##enca": 1393,
      "##asa": 1394,
      "andhes": 1395,
      "##tegu": 1396,
      "##ullit": 1397,
      "##zategu": 1398,
      "##ime": 1399,
      "##etche": 1400,
      "bioquim": 1401,
      "agencia": 1402,
      "##cuato": 1403,
      "##echos": 1404,
      "proyun": 1405,
      "promoc": 1406,
      "##ticos": 1407,
      "conicetpa": 1408,
      "##avioural": 1409,
      "clinicos": 1410,
      "civiles": 1411,
      "infec": 1412,
      "##uretche": 1413,
      "##gnitiv": 1414,
      "fotos": 1415,
      "latinoamerica": 1416,
      "cognitiv": 1417,
      "derechos": 1418,
      "jaime": 1419,
      "jauretche": 1420,
      "ambient": 1421,
      "icb": 1422,
      "auger": 1423,
      "##rocred": 1424,
      "viajero": 1425,
      "berazategu": 1426,
      "behavioural": 1427,
      "cuenca": 1428,
      "javier": 1429,
      "kennedy": 1430,
      "microcred": 1431,
      "medio": 1432,
      "pierre": 1433,
      "slullit": 1434,
      "senasa": 1435,
      "torcuato": 1436,
      "zaldivar": 1437,
      "##inteticos": 1438,
      "instituciones": 1439,
      "bioquimicos": 1440,
      "proyungas": 1441,
      "promocion": 1442,
      "conicetpatagonia": 1443,
      "fotosinteticos": 1444,
      "cognitive": 1445,
      "ambiente": 1446,
      "berazategui": 1447,
      "microcredito": 1448,
      "slullitel": 1449,
      "cel": 1450,
      "hu": 1451,
      "ica": 1452,
      "ige": 1453,
      "iicar": 1454,
      "mul": 1455,
      "oik": 1456,
      "pilo": 1457,
      "sena": 1458,
      "uel": 1459,
      "uca": 1460,
      "##bus": 1461,
      "##imental": 1462,
      "##itica": 1463,
      "##ten": 1464,
      "##efa": 1465,
      "##anal": 1466,
      "##atre": 1467,
      "##sa": 1468,
      "##ped": 1469,
      "##fen": 1470,
      "##vet": 1471,
      "##tidiscipl": 1472,
      "defen": 1473,
      "##esped": 1474,
      "##acen": 1475,
      "##ecu": 1476,
      "universita": 1477,
      "platen": 1478,
      "##umbus": 1479,
      "fundacen": 1480,
      "ciefa": 1481,
      "##imi": 1482,
      "##imar": 1483,
      "esqu": 1484,
      "proimi": 1485,
      "columbus": 1486,
      "theatre": 1487,
      "ifimar": 1488,
      "exper": 1489,
      "##ality": 1490,
      "imbecu": 1491,
      "academia": 1492,
      "psicoanal": 1493,
      "planta": 1494,
      "infant": 1495,
      "municipality": 1496,
      "celular": 1497,
      "huesped": 1498,
      "icate": 1499,
      "igevet": 1500,
      "multidiscipl": 1501,
      "oikos": 1502,
      "piloto": 1503,
      "senate": 1504,
      "defensa": 1505,
      "platense": 1506,
      "ciefap": 1507,
      "esquel": 1508,
      "experimental": 1509,
      "psicoanalitica": 1510,
      "multidisciplinario": 1511,
      "bel": 1512,
      "for": 1513,
      "fig": 1514,
      "iad": 1515,
      "msal": 1516,
      "sm": 1517,
      "var": 1518,
      "wik": 1519,
      "##rano": 1520,
      "##tandil": 1521,
      "##nge": 1522,
      "##lend": 1523,
      "##grano": 1524,
      "##ain": 1525,
      "##st": 1526,
      "##mf": 1527,
      "##ht": 1528,
      "bunge": 1529,
      "intec": 1530,
      "##logical": 1531,
      "##acial": 1532,
      "##edia": 1533,
      "medicas": 1534,
      "##terra": 1535,
      "##imedia": 1536,
      "again": 1537,
      "carib": 1538,
      "conicettandil": 1539,
      "allend": 1540,
      "immf": 1541,
      "actividad": 1542,
      "born": 1543,
      "cicterra": 1544,
      "academy": 1545,
      "neurological": 1546,
      "pediatric": 1547,
      "macn": 1548,
      "disease": 1549,
      "espacial": 1550,
      "belgrano": 1551,
      "fight": 1552,
      "iadt": 1553,
      "smn": 1554,
      "varela": 1555,
      "wikimedia": 1556,
      "against": 1557,
      "caribe": 1558,
      "allende": 1559,
      "actividades": 1560,
      "espaciales": 1561,
      "bos": 1562,
      "blas": 1563,
      "cit": 1564,
      "clement": 1565,
      "dio": 1566,
      "fisc": 1567,
      "ign": 1568,
      "nacion": 1569,
      "nation": 1570,
      "pin": 1571,
      "pasc": 1572,
      "pod": 1573,
      "ty": 1574,
      "tomas": 1575,
      "##cil": 1576,
      "##ras": 1577,
      "##ef": 1578,
      "##get": 1579,
      "##ates": 1580,
      "##pas": 1581,
      "##dic": 1582,
      "##mpas": 1583,
      "##fle": 1584,
      "##xion": 1585,
      "##iolp": 1586,
      "depor": 1587,
      "inib": 1588,
      "##turas": 1589,
      "##edef": 1590,
      "##istr": 1591,
      "estud": 1592,
      "biologica": 1593,
      "biologicas": 1594,
      "judic": 1595,
      "refle": 1596,
      "embr": 1597,
      "produc": 1598,
      "iteda": 1599,
      "anton": 1600,
      "histologia": 1601,
      "ibmpas": 1602,
      "veget": 1603,
      "##cesano": 1604,
      "fisiologia": 1605,
      "council": 1606,
      "magistr": 1607,
      "aquino": 1608,
      "bcn": 1609,
      "bosco": 1610,
      "citedef": 1611,
      "clemente": 1612,
      "diocesano": 1613,
      "fiscal": 1614,
      "pinturas": 1615,
      "pascal": 1616,
      "poder": 1617,
      "typa": 1618,
      "deportes": 1619,
      "inibiolp": 1620,
      "estudio": 1621,
      "judicial": 1622,
      "reflexion": 1623,
      "embriologia": 1624,
      "produccion": 1625,
      "antonio": 1626,
      "vegetal": 1627,
      "magistrates": 1628,
      "cing": 1629,
      "eg": 1630,
      "eu": 1631,
      "hor": 1632,
      "iqu": 1633,
      "ibs": 1634,
      "oa": 1635,
      "ret": 1636,
      "sid": 1637,
      "ut": 1638,
      "us": 1639,
      "ud": 1640,
      "##berto": 1641,
      "##iment": 1642,
      "##oto": 1643,
      "##eon": 1644,
      "##lio": 1645,
      "##glio": 1646,
      "##sion": 1647,
      "##uglio": 1648,
      "##pica": 1649,
      "##mo": 1650,
      "##mec": 1651,
      "##hua": 1652,
      "##vir": 1653,
      "##2s": 1654,
      "##ermo": 1655,
      "##ani": 1656,
      "und": 1657,
      "inics": 1658,
      "##tology": 1659,
      "##ronologia": 1660,
      "##rovir": 1661,
      "##ission": 1662,
      "##idio": 1663,
      "energ": 1664,
      "##ascu": 1665,
      "##lares": 1666,
      "cento": 1667,
      "##olani": 1668,
      "##ocronologia": 1669,
      "cimec": 1670,
      "ci2s": 1671,
      "aliment": 1672,
      "cardiovascu": 1673,
      "criotecnologia": 1674,
      "feruglio": 1675,
      "norberto": 1676,
      "quir": 1677,
      "commission": 1678,
      "isoto": 1679,
      "##genio": 1680,
      "geocronologia": 1681,
      "ibr": 1682,
      "ibbm": 1683,
      "biomedicas": 1684,
      "##ifib": 1685,
      "geologia": 1686,
      "neurologia": 1687,
      "paleon": 1688,
      "palermo": 1689,
      "atomic": 1690,
      "cingolani": 1691,
      "egidio": 1692,
      "eugenio": 1693,
      "horacio": 1694,
      "iquifib": 1695,
      "oapa": 1696,
      "retrovir": 1697,
      "sida": 1698,
      "ushua": 1699,
      "inicsa": 1700,
      "energy": 1701,
      "alimentos": 1702,
      "cardiovasculares": 1703,
      "quirno": 1704,
      "isotopica": 1705,
      "paleontology": 1706,
      "retrovirus": 1707,
      "ushuaia": 1708,
      "ced": 1709,
      "jun": 1710,
      "tig": 1711,
      "##biotecnologia": 1712,
      "##tar": 1713,
      "##san": 1714,
      "##pf": 1715,
      "##plement": 1716,
      "##me": 1717,
      "##mes": 1718,
      "##rogu": 1719,
      "##robiotecnologia": 1720,
      "##ecim": 1721,
      "##teras": 1722,
      "##ilmes": 1723,
      "mapf": 1724,
      "agrobiotecnologia": 1725,
      "conicetsan": 1726,
      "antar": 1727,
      "adrogu": 1728,
      "crecim": 1729,
      "implement": 1730,
      "quilmes": 1731,
      "publicas": 1732,
      "materiales": 1733,
      "politicas": 1734,
      "iate": 1735,
      "tenis": 1736,
      "equidad": 1737,
      "ifisur": 1738,
      "cosme": 1739,
      "costeras": 1740,
      "marinas": 1741,
      "cedes": 1742,
      "junin": 1743,
      "tigre": 1744,
      "mapfre": 1745,
      "adrogue": 1746,
      "crecimiento": 1747,
      "implementacion": 1748,
      "br": 1749,
      "ez": 1750,
      "ef": 1751,
      "fed": 1752,
      "iar": 1753,
      "lim": 1754,
      "part": 1755,
      "sus": 1756,
      "ucu": 1757,
      "vic": 1758,
      "##ck": 1759,
      "##iza": 1760,
      "##iet": 1761,
      "##tent": 1762,
      "##eiza": 1763,
      "##ner": 1764,
      "##eral": 1765,
      "##aria": 1766,
      "##ectividad": 1767,
      "max": 1768,
      "societ": 1769,
      "lujo": 1770,
      "clinica": 1771,
      "##able": 1772,
      "policia": 1773,
      "isidro": 1774,
      "biomedicine": 1775,
      "icas": 1776,
      "unav": 1777,
      "planck": 1778,
      "sanitaria": 1779,
      "ezeiza": 1780,
      "efectividad": 1781,
      "federal": 1782,
      "limnologia": 1783,
      "partner": 1784,
      "sustent": 1785,
      "victoria": 1786,
      "society": 1787,
      "sustentable": 1788,
      "fac": 1789,
      "tres": 1790,
      "##cent": 1791,
      "##gra": 1792,
      "##ante": 1793,
      "febr": 1794,
      "##ult": 1795,
      "##raliz": 1796,
      "electric": 1797,
      "descent": 1798,
      "empresariales": 1799,
      "mercante": 1800,
      "facult": 1801,
      "febrero": 1802,
      "##ralizado": 1803,
      "descentralizado": 1804,
      "cine": 1805,
      "fio": 1806,
      "pres": 1807,
      "pena": 1808,
      "terap": 1809,
      "##eutica": 1810,
      "##enz": 1811,
      "##erolog": 1812,
      "##enterolog": 1813,
      "##ece": 1814,
      "##idencia": 1815,
      "interam": 1816,
      "latin": 1817,
      "##rini": 1818,
      "diagnostica": 1819,
      "american": 1820,
      "saenz": 1821,
      "##troenterolog": 1822,
      "roque": 1823,
      "gastroenterolog": 1824,
      "hpc": 1825,
      "ucaece": 1826,
      "fiorini": 1827,
      "presidencia": 1828,
      "terapeutica": 1829,
      "gastroenterologia": 1830,
      "ay": 1831,
      "hn": 1832,
      "vied": 1833,
      "##rc": 1834,
      "##iif": 1835,
      "##aec": 1836,
      "##ho": 1837,
      "##acuc": 1838,
      "imrc": 1839,
      "empresas": 1840,
      "icba": 1841,
      "economia": 1842,
      "umiif": 1843,
      "idim": 1844,
      "atomico": 1845,
      "ayacuc": 1846,
      "hnrg": 1847,
      "viedma": 1848,
      "##aeci": 1849,
      "umiifaeci": 1850,
      "ayacucho": 1851,
      "ces": 1852,
      "dac": 1853,
      "hua": 1854,
      "iun": 1855,
      "mil": 1856,
      "ol": 1857,
      "pon": 1858,
      "##ste": 1859,
      "##hn": 1860,
      "##har": 1861,
      "##ven": 1862,
      "##tif": 1863,
      "##alp": 1864,
      "##ivos": 1865,
      "unlp": 1866,
      "inif": 1867,
      "##olina": 1868,
      "##toral": 1869,
      "dra": 1870,
      "juven": 1871,
      "carolina": 1872,
      "littoral": 1873,
      "ucalp": 1874,
      "ibod": 1875,
      "infanto": 1876,
      "gaston": 1877,
      "cesar": 1878,
      "dachar": 1879,
      "iunir": 1880,
      "milste": 1881,
      "olivos": 1882,
      "pontif": 1883,
      "inifta": 1884,
      "juvenil": 1885,
      "iboda": 1886,
      "dachary": 1887,
      "milstein": 1888,
      "pampa": 1889,
      "ub": 1890,
      "ua": 1891,
      "##asal": 1892,
      "cifas": 1893,
      "matan": 1894,
      "ucasal": 1895,
      "sanofi": 1896,
      "cifasis": 1897,
      "matanza": 1898,
      "cm": 1899,
      "cas": 1900,
      "du": 1901,
      "hi": 1902,
      "##bf": 1903,
      "##gna": 1904,
      "##men": 1905,
      "##met": 1906,
      "##hi": 1907,
      "##eros": 1908,
      "inmet": 1909,
      "rosa": 1910,
      "##ocios": 1911,
      "champa": 1912,
      "parmen": 1913,
      "negocios": 1914,
      "frances": 1915,
      "flores": 1916,
      "iuhi": 1917,
      "uader": 1918,
      "cmbf": 1919,
      "caseros": 1920,
      "hiba": 1921,
      "##gnat": 1922,
      "champagnat": 1923,
      "parmenio": 1924,
      "apl": 1925,
      "dar": 1926,
      "ean": 1927,
      "tib": 1928,
      "##cial": 1929,
      "##wes": 1930,
      "##win": 1931,
      "##icadas": 1932,
      "##oricas": 1933,
      "##onca": 1934,
      "##icoquim": 1935,
      "##unidad": 1936,
      "comunidad": 1937,
      "##urcio": 1938,
      "teoricas": 1939,
      "aconca": 1940,
      "##tanica": 1941,
      "fisicoquim": 1942,
      "provincial": 1943,
      "botanica": 1944,
      "pediatria": 1945,
      "northwes": 1946,
      "aplicadas": 1947,
      "darwin": 1948,
      "tiburcio": 1949,
      "aconcagua": 1950,
      "fisicoquimicas": 1951,
      "northwestern": 1952,
      "darwinion": 1953,
      "ber": 1954,
      "ra": 1955,
      "stam": 1956,
      "trop": 1957,
      "ucs": 1958,
      "##bo": 1959,
      "##bol": 1960,
      "##los": 1961,
      "##gres": 1962,
      "##utico": 1963,
      "##ple": 1964,
      "##fes": 1965,
      "##jidad": 1966,
      "##jand": 1967,
      "unca": 1968,
      "##roec": 1969,
      "##tabol": 1970,
      "congres": 1971,
      "##ulian": 1972,
      "comple": 1973,
      "carlos": 1974,
      "profes": 1975,
      "alta": 1976,
      "alejand": 1977,
      "##fael": 1978,
      "metabol": 1979,
      "bustos": 1980,
      "macroec": 1981,
      "hpr": 1982,
      "aeronautico": 1983,
      "udemm": 1984,
      "bernal": 1985,
      "rafael": 1986,
      "stambo": 1987,
      "tropical": 1988,
      "ucsf": 1989,
      "congreso": 1990,
      "complejidad": 1991,
      "profesor": 1992,
      "alejandro": 1993,
      "metabolicas": 1994,
      "macroeconom": 1995,
      "stamboulian": 1996,
      "ina": 1997,
      "ion": 1998,
      "sor": 1999,
      "ug": 2000,
      "uch": 2001,
      "##ead": 2002,
      "##fis": 2003,
      "##ional": 2004,
      "unc": 2005,
      "esead": 2006,
      "##reps": 2007,
      "rehabilitacion": 2008,
      "superiora": 2009,
      "psicofis": 2010,
      "inareps": 2011,
      "ionc": 2012,
      "ugd": 2013,
      "eseade": 2014,
      "psicofisica": 2015,
      "fuc": 2016,
      "no": 2017,
      "uf": 2018,
      "##tarial": 2019,
      "unse": 2020,
      "##iaventis": 2021,
      "ucel": 2022,
      "sanofiaventis": 2023,
      "notarial": 2024,
      "uflo": 2025,
      "gu": 2026,
      "ricar": 2027,
      "ums": 2028,
      "##tier": 2029,
      "##rez": 2030,
      "uces": 2031,
      "unsj": 2032,
      "gutier": 2033,
      "ricardo": 2034,
      "umsa": 2035,
      "gutierrez": 2036,
      "hidro": 2037,
      "##dp": 2038,
      "##mdp": 2039,
      "##fia": 2040,
      "##vm": 2041,
      "unt": 2042,
      "unmdp": 2043,
      "unvm": 2044,
      "##acta": 2045,
      "altos": 2046,
      "exacta": 2047,
      "##grafia": 2048,
      "pontificia": 2049,
      "hidrografia": 2050,
      "exactas": 2051,
      "naval": 2052,
      "wes": 2053,
      "##cios": 2054,
      "##pfa": 2055,
      "##deste": 2056,
      "##int": 2057,
      "##inas": 2058,
      "thomas": 2059,
      "nordeste": 2060,
      "saint": 2061,
      "unam": 2062,
      "iupfa": 2063,
      "aquinas": 2064,
      "infeccios": 2065,
      "unlpam": 2066,
      "uai": 2067,
      "west": 2068,
      "infecciosas": 2069,
      "ban": 2070,
      "jo": 2071,
      "lif": 2072,
      "wa": 2073,
      "##ts": 2074,
      "untre": 2075,
      "repu": 2076,
      "itba": 2077,
      "arts": 2078,
      "unsta": 2079,
      "sanitation": 2080,
      "bank": 2081,
      "john": 2082,
      "life": 2083,
      "water": 2084,
      "untref": 2085,
      "republ": 2086,
      "fl": 2087,
      "so": 2088,
      "##ctica": 2089,
      "##the": 2090,
      "##so": 2091,
      "##uth": 2092,
      "##yt": 2093,
      "##ds": 2094,
      "##minister": 2095,
      "unf": 2096,
      "##acso": 2097,
      "##ast": 2098,
      "##lands": 2099,
      "interminister": 2100,
      "northe": 2101,
      "ucp": 2102,
      "##encias": 2103,
      "islands": 2104,
      "emergencias": 2105,
      "atlantic": 2106,
      "unsl": 2107,
      "undec": 2108,
      "antarctica": 2109,
      "flacso": 2110,
      "south": 2111,
      "interministerial": 2112,
      "northeast": 2113,
      "ays": 2114,
      "fra": 2115,
      "gedy": 2116,
      "hb": 2117,
      "##eam": 2118,
      "##nos": 2119,
      "##up": 2120,
      "argentinos": 2121,
      "uno": 2122,
      "saneam": 2123,
      "##aciones": 2124,
      "tecnologica": 2125,
      "agrup": 2126,
      "##ientos": 2127,
      "unsa": 2128,
      "unaj": 2129,
      "##ternidad": 2130,
      "unlam": 2131,
      "faculty": 2132,
      "aysa": 2133,
      "fraternidad": 2134,
      "gedyt": 2135,
      "saneamientos": 2136,
      "agrupaciones": 2137,
      "uk": 2138,
      "##ous": 2139,
      "##dt": 2140,
      "##jb": 2141,
      "##tious": 2142,
      "##anico": 2143,
      "##itanico": 2144,
      "unps": 2145,
      "technological": 2146,
      "diseases": 2147,
      "unrn": 2148,
      "infectious": 2149,
      "utn": 2150,
      "utdt": 2151,
      "britanico": 2152,
      "unpsjb": 2153,
      "usal": 2154,
      "unno": 2155,
      "unne": 2156,
      "ucse": 2157,
      "heca": 2158,
      "museo": 2159,
      "municipal": 2160,
      "unlz": 2161,
      "unlar": 2162,
      "uade": 2163,
      "adventist": 2164,
      "adventista": 2165,
      "unnoba": 2166,
      "ab": 2167,
      "fas": 2168,
      "human": 2169,
      "minis": 2170,
      "op": 2171,
      "##itis": 2172,
      "##ities": 2173,
      "##zional": 2174,
      "##vo": 2175,
      "##ativo": 2176,
      "##ierta": 2177,
      "educativo": 2178,
      "nazional": 2179,
      "innovation": 2180,
      "undav": 2181,
      "britis": 2182,
      "interamericana": 2183,
      "interamerican": 2184,
      "uncaus": 2185,
      "abierta": 2186,
      "fasta": 2187,
      "humanities": 2188,
      "ministry": 2189,
      "open": 2190,
      "nazionale": 2191,
      "british": 2192,
      "darg": 2193,
      "up": 2194,
      "##iqu": 2195,
      "##ique": 2196,
      "##df": 2197,
      "##tida": 2198,
      "detud": 2199,
      "##entine": 2200,
      "uner": 2201,
      "centre": 2202,
      "islas": 2203,
      "atlantico": 2204,
      "catholique": 2205,
      "iuna": 2206,
      "antartida": 2207,
      "macroeconomiqu": 2208,
      "untdf": 2209,
      "dargentine": 2210,
      "detudes": 2211,
      "macroeconomiques": 2212,
      "cem": 2213,
      "riv": 2214,
      "ufas": 2215,
      "unq": 2216,
      "plate": 2217,
      "aeronautica": 2218,
      "facultad": 2219,
      "ubp": 2220,
      "cema": 2221,
      "river": 2222,
      "ufasta": 2223,
      "unpa": 2224,
      "educational": 2225,
      "ka": 2226,
      "las": 2227,
      "##icen": 2228,
      "unicen": 2229,
      "##ische": 2230,
      "artes": 2231,
      "##tholische": 2232,
      "universitat": 2233,
      "katholische": 2234,
      "min": 2235,
      "uda": 2236,
      "##cyt": 2237,
      "ofic": 2238,
      "universidade": 2239,
      "astronomia": 2240,
      "espacio": 2241,
      "macroeconomicos": 2242,
      "mincyt": 2243,
      "oficina": 2244,
      "banc": 2245,
      "hy": 2246,
      "uce": 2247,
      "##dro": 2248,
      "##tuba": 2249,
      "##encial": 2250,
      "##asist": 2251,
      "##phic": 2252,
      "service": 2253,
      "interdisciplinario": 2254,
      "psicoasist": 2255,
      "conicetuba": 2256,
      "adventiste": 2257,
      "##graphic": 2258,
      "republic": 2259,
      "republica": 2260,
      "banco": 2261,
      "hydro": 2262,
      "ucema": 2263,
      "psicoasistencial": 2264,
      "hydrographic": 2265,
      "shn": 2266,
      "uba": 2267,
      "##gional": 2268,
      "##fe": 2269,
      "##esa": 2270,
      "##institu": 2271,
      "cientifica": 2272,
      "regional": 2273,
      "interinstitu": 2274,
      "tecnica": 2275,
      "space": 2276,
      "##cional": 2277,
      "iafe": 2278,
      "astronomy": 2279,
      "bcra": 2280,
      "unrc": 2281,
      "udesa": 2282,
      "uncoma": 2283,
      "interinstitucional": 2284,
      "iua": 2285,
      "mc": 2286,
      "##nage": 2287,
      "unco": 2288,
      "##teip": 2289,
      "manage": 2290,
      "productiv": 2291,
      "ucc": 2292,
      "cicyt": 2293,
      "mcteip": 2294,
      "management": 2295,
      "productive": 2296,
      "##eg": 2297,
      "productiva": 2298,
      "coleg": 2299,
      "pontifical": 2300,
      "uap": 2301,
      "colegio": 2302,
      "von": 2303,
      "##tl": 2304,
      "##gs": 2305,
      "argentini": 2306,
      "##iche": 2307,
      "ungs": 2308,
      "paps": 2309,
      "##tliche": 2310,
      "argentinien": 2311,
      "papstliche": 2312,
      "##ttolica": 2313,
      "cattolica": 2314,
      "unsam": 2315
    }
  }
}